{"version": 1, "vocab_size": 2048, "merges": [["i", "n"], ["e", "r"], ["o", "n"], ["a", "n"], ["e", "n"], ["e", "s"], ["a", "r"], ["a", "t"], ["e", "d"], ["a", "l"], ["o", "r"], ["\u0120", "c"], ["\u0120", "s"], ["i", "c"], ["in", "g"], ["i", "s"], ["r", "e"], ["\u0120", "p"], ["i", "on"], ["i", "t"], ["\u0120", "d"], ["\u0120", "S"], ["l", "e"], ["r", "o"], ["\u0120", "C"], ["a", "s"], ["e", "l"], ["en", "t"], ["r", "a"], ["\u0120", "M"], ["\u0120", "t"], ["\u0120", "A"], ["u", "s"], ["o", "l"], ["i", "l"], ["u", "r"], ["\u0120", "m"], ["\u0120", "B"], ["o", "m"], ["\u0120", "f"], ["u", "n"], ["\u0120", "1"], ["c", "h"], ["\u0120", "b"], ["e", "t"], ["\u0120", "P"], ["c", "t"], ["a", "m"], ["i", "v"], ["\u0120", "T"], ["i", "d"], ["at", "ion"], ["\u0120", "R"], ["\u0120", "a"], ["i", "m"], ["\u0120", "l"], ["u", "m"], ["u", "t"], ["er", "s"], ["\u0120", "e"], ["i", "g"], ["u", "l"], ["s", "t"], ["\u0120", "re"], ["\u0120", "L"], ["\u0120", "H"], ["\u0120", "G"], ["a", "d"], ["\u0120", "D"], ["\u0120", "in"], ["l", "y"], ["\u0120", "h"], ["c", "e"], ["e", "m"], ["is", "t"], ["o", "t"], ["\u0120", "E"], ["an", "d"], ["o", "s"], ["\u0120", "F"], ["i", "a"], ["\u0120", "g"], ["o", "p"], ["i", "r"], ["\u0120", "N"], ["o", "w"], ["i", "i"], ["\u0120", "w"], ["a", "b"], ["\u0120", "K"], ["t", "er"], ["a", "g"], ["\u0120", "I"], ["a", "y"], ["t", "h"], ["es", "t"], ["\u0120", "n"], ["\u0120", "W"], ["r", "i"], ["o", "d"], ["\u0120c", "on"], ["\u0120", "2"], ["an", "t"], ["a", "k"], ["\u0120", "r"], ["x", "x"], ["i", "an"], ["a", "p"], ["es", "s"], ["\u0120s", "t"], ["\u0120", "O"], ["i", "f"], ["\u01201", "9"], ["c", "k"], ["o", "v"], ["\u0120", "J"], ["i", "es"], ["o", "g"], ["p", "h"], ["\u0120", "v"], ["or", "t"], ["c", "c"], ["\u0120d", "e"], ["al", "l"], ["\u0120c", "om"], ["\u0120", "5"], ["\u0120", "V"], ["\u0120p", "ro"], ["\u0120", "3"], ["i", "p"], ["\u0120C", "h"], ["\u0120e", "x"], ["q", "u"], ["u", "b"], ["ar", "d"], ["at", "e"], ["\u0120", "6"], ["un", "d"], ["i", "um"], ["\u0120", "7"], ["ic", "al"], ["\u0120", "4"], ["a", "v"], ["u", "d"], ["e", "c"], ["en", "d"], ["m", "ent"], ["is", "h"], ["a", "in"], ["ar", "t"], ["\u0120", "8"], ["in", "e"], ["il", "l"], ["iv", "e"], ["u", "g"], ["el", "l"], ["i", "e"], ["it", "y"], ["as", "s"], ["\u0120", "9"], ["u", "p"], ["i", "z"], ["en", "s"], ["at", "ed"], ["i", "al"], ["e", "ct"], ["r", "an"], ["o", "ur"], ["ig", "h"], ["\u0120c", "h"], ["\u0120t", "h"], ["as", "t"], ["p", "l"], ["i", "b"], ["o", "b"], ["or", "d"], ["\u0120s", "p"], ["ion", "s"], ["a", "c"], ["t", "s"], ["o", "c"], ["\u0120", "U"], ["e", "y"], ["\u0120S", "t"], ["f", "f"], ["o", "k"], ["c", "l"], ["ation", "s"], ["\u0120", "k"], ["e", "p"], ["ar", "y"], ["\u0120I", "n"], ["r", "y"], ["e", "v"], ["on", "g"], ["an", "g"], ["us", "t"], ["s", "h"], ["u", "re"], ["o", "us"], ["a", "ch"], ["ii", "i"], ["\u0120d", "is"], ["p", "r"], ["a", "h"], ["\u0120s", "h"], ["i", "x"], ["\u0120A", "n"], ["a", "ct"], ["e", "g"], ["id", "e"], ["0", "0"], ["h", "er"], ["or", "m"], ["o", "un"], ["p", "t"], ["\u0120", "o"], ["\u0120a", "d"], ["on", "e"], ["en", "c"], ["r", "ic"], ["\u01201", "8"], ["\u0120", "Y"], ["m", "an"], ["\u0120S", "h"], ["\u0120A", "l"], ["\u0120com", "p"], ["l", "o"], ["\u0120", "le"], ["p", "ort"], ["in", "d"], ["er", "n"], ["er", "t"], ["al", "s"], ["\u0120", "un"], ["\u0120", "ar"], ["ic", "s"], ["ent", "s"], ["o", "st"], ["a", "ck"], ["on", "s"], ["or", "s"], ["i", "re"], ["\u0120p", "r"], ["\u0120T", "h"], ["\u0120", "im"], ["ul", "t"], ["en", "ce"], ["l", "and"], ["ow", "n"], ["xx", "x"], ["igh", "t"], ["e", "w"], ["d", "u"], ["a", "il"], ["al", "ly"], ["ol", "og"], ["p", "e"], ["y", "s"], ["g", "e"], ["i", "k"], ["a", "w"], ["er", "v"], ["\u0120c", "l"], ["\u0120s", "c"], ["ag", "e"], ["\u0120r", "es"], ["on", "t"], ["at", "t"], ["\u0120", "j"], ["e", "b"], ["ar", "e"], ["ar", "k"], ["el", "y"], ["ra", "m"], ["ol", "d"], ["ter", "n"], ["\u0120con", "t"], ["y", "l"], ["a", "f"], ["at", "h"], ["ab", "le"], ["a", "z"], ["\u0120", "an"], ["ing", "s"], ["r", "it"], ["\u0120", "ro"], ["le", "ct"], ["an", "ce"], ["i", "er"], ["or", "e"], ["\u0120s", "e"], ["is", "m"], ["p", "ro"], ["ra", "d"], ["\u0120A", "r"], ["\u0120s", "ub"], ["o", "und"], ["r", "u"], ["at", "es"], ["e", "f"], ["en", "g"], ["\u0120C", "om"], ["\u01202", "0"], ["t", "e"], ["on", "d"], ["\u0120", "al"], ["is", "s"], ["v", "iii"], ["s", "e"], ["i", "o"], ["u", "e"], ["o", "h"], ["p", "er"], ["ic", "h"], ["\u0120p", "l"], ["\u0120a", "p"], ["ig", "n"], ["a", "ir"], ["\u0120n", "e"], ["x", "l"], ["er", "y"], ["r", "on"], ["an", "c"], ["ic", "t"], ["at", "ing"], ["\u0120p", "re"], ["\u0120p", "er"], ["i", "le"], ["ro", "w"], ["as", "h"], ["ra", "v"], ["\u0120t", "e"], ["\u0120in", "ter"], ["ra", "ph"], ["ug", "h"], ["ran", "s"], ["e", "k"], ["y", "m"], ["a", "e"], ["O", "S"], ["b", "er"], ["l", "es"], ["ar", "s"], ["or", "k"], ["ic", "k"], ["it", "e"], ["it", "h"], ["p", "le"], ["\u01201", "6"], ["a", "ce"], ["l", "ow"], ["w", "ay"], ["\u0120d", "cc"], ["1", "9"], ["\u0120", "Z"], ["y", "n"], ["in", "k"], ["t", "on"], ["ar", "i"], ["er", "ed"], ["u", "al"], ["ic", "e"], ["\u0120c", "ol"], ["\u0120a", "c"], ["\u0120", "qu"], ["oun", "t"], ["l", "l"], ["\u0120", "or"], ["\u0120p", "h"], ["\u0120", "ra"], ["o", "ut"], ["\u010a", "A"], ["a", "u"], ["\u0120", "Q"], ["f", "er"], ["ar", "g"], ["or", "y"], ["as", "e"], ["\u0120P", "ro"], ["\u0120re", "c"], ["\u0120in", "t"], ["\u0120", "op"], ["\u0120con", "s"], ["\u0120com", "m"], ["l", "u"], ["an", "s"], ["ar", "a"], ["or", "n"], ["is", "e"], ["it", "s"], ["\u0120d", "es"], ["b", "ur"], ["iv", "es"], ["o", "ck"], ["ov", "er"], ["\u0120de", "f"], ["iz", "ed"], ["f", "t"], ["b", "o"], ["in", "c"], ["an", "k"], ["\u0120", "en"], ["e", "at"], ["it", "ion"], ["i", "ent"], ["\u0120A", "d"], ["\u01201", "2"], ["at", "ch"], ["ct", "ion"], ["r", "im"], ["ul", "ar"], ["\u0120w", "h"], ["\u0120W", "h"], ["ri", "b"], ["if", "ic"], ["at", "ive"], ["\u0120", "att"], ["e", "x"], ["in", "a"], ["en", "n"], ["ar", "m"], ["i", "ed"], ["\u0120S", "c"], ["\u0120C", "on"], ["\u0120m", "an"], ["o", "ot"], ["o", "od"], ["f", "orm"], ["og", "raph"], ["v", "e"], ["u", "c"], ["2", "0"], ["in", "s"], ["an", "a"], ["es", "e"], ["r", "es"], ["l", "ed"], ["re", "e"], ["b", "le"], ["\u0120C", "l"], ["el", "s"], ["v", "ent"], ["\u0120M", "c"], ["\u0120A", "m"], ["\u0120s", "ur"], ["\u0120b", "e"], ["\u0120", "am"], ["\u0120e", "m"], ["\u0120in", "st"], ["ak", "e"], ["ub", "l"], ["\u0120U", "n"], ["in", "n"], ["ar", "n"], ["t", "ed"], ["c", "ed"], ["ur", "n"], ["\u01201", "1"], ["ar", "ch"], ["et", "s"], ["\u0120P", "h"], ["am", "p"], ["iv", "ers"], ["\u0120re", "l"], ["e", "ad"], ["\u0120in", "d"], ["ian", "s"], ["it", "ies"], ["ment", "s"], ["\u0120dis", "c"], ["t", "t"], ["a", "i"], ["v", "i"], ["a", "j"], ["l", "in"], ["an", "n"], ["p", "or"], ["o", "ol"], ["\u0120f", "or"], ["e", "ch"], ["\u0120b", "o"], ["id", "ent"], ["ation", "al"], ["\u0120L", "e"], ["os", "s"], ["os", "e"], ["v", "ii"], ["\u0120I", "s"], ["w", "ard"], ["ie", "w"], ["il", "ity"], ["\u0120t", "rans"], ["0", "2"], ["x", "c"], ["d", "er"], ["er", "m"], ["s", "on"], ["o", "on"], ["ar", "b"], ["p", "ed"], ["r", "al"], ["t", "ing"], ["\u0120p", "ar"], ["\u0120S", "p"], ["ra", "in"], ["\u0120p", "ol"], ["ur", "es"], ["\u0120B", "r"], ["\u01201", "3"], ["\u01201", "5"], ["\u0120S", "ch"], ["et", "h"], ["\u0120de", "v"], ["\u0120de", "p"], ["\u0120ex", "t"], ["\u0120s", "up"], ["iz", "ation"], ["pr", "ess"], ["a", "x"], ["\u010a", "S"], ["\u010a", "P"], ["o", "in"], ["g", "er"], ["m", "ed"], ["er", "al"], ["al", "e"], ["c", "om"], ["\u01201", "7"], ["ut", "h"], ["\u0120re", "g"], ["ist", "or"], ["r", "ist"], ["or", "th"], ["\u0120n", "ot"], ["\u0120st", "r"], ["\u0120a", "cc"], ["ical", "ly"], ["j", "ect"], ["\u0120", "ob"], ["bur", "g"], ["o", "u"], ["\u0120", "y"], ["0", "9"], ["\u010a", "M"], ["v", "er"], ["er", "e"], ["er", "g"], ["e", "an"], ["in", "es"], ["\u0120c", "or"], ["is", "c"], ["is", "ed"], ["le", "y"], ["o", "le"], ["as", "k"], ["\u0120", "ent"], ["\u0120A", "p"], ["\u0120A", "s"], ["us", "e"], ["us", "h"], ["\u0120P", "l"], ["ra", "ct"], ["am", "e"], ["\u0120a", "ct"], ["\u0120a", "g"], ["im", "e"], ["\u0120l", "o"], ["um", "b"], ["ul", "l"], ["\u0120re", "f"], ["\u0120E", "n"], ["ay", "s"], ["\u0120f", "orm"], ["\u0120o", "ff"], ["\u0120ad", "v"], ["olog", "y"], ["m", "e"], ["6", "4"], ["t", "y"], ["1", "5"], ["b", "y"], ["y", "d"], ["0", "s"], ["\u010a", "C"], ["in", "u"], ["g", "an"], ["v", "en"], ["r", "en"], ["\u0120", "ed"], ["\u0120c", "o"], ["at", "ic"], ["it", "ed"], ["le", "g"], ["u", "ro"], ["el", "d"], ["\u0120A", "b"], ["il", "y"], ["\u0120B", "e"], ["\u0120f", "l"], ["\u0120b", "ro"], ["i", "et"], ["ut", "ion"], ["p", "ut"], ["f", "ul"], ["\u0120in", "f"], ["\u0120in", "c"], ["in", "ist"], ["ist", "s"], ["\u0120g", "en"], ["ant", "s"], ["ak", "h"], ["r", "ess"], ["\u0120O", "r"], ["if", "f"], ["\u0120c", "cc"], ["t", "ain"], ["\u0120p", "art"], ["\u0120", "ass"], ["\u0120In", "d"], ["i", "ous"], ["\u0120e", "lect"], ["h", "e"], ["w", "e"], ["3", "5"], ["2", "4"], ["1", "4"], ["1", "6"], ["4", "3"], ["9", "9"], ["s", "p"], ["3", "8"], ["2", "2"], ["4", "8"], ["o", "z"], ["y", "r"], ["o", "y"], ["e", "in"], ["c", "on"], ["t", "en"], ["ar", "l"], ["\u0120c", "d"], ["ic", "a"], ["r", "ing"], ["\u0120p", "at"], ["ro", "s"], ["\u0120C", "ar"], ["i", "ra"], ["\u0120M", "or"], ["\u0120M", "ar"], ["i", "us"], ["\u0120C", "ol"], ["il", "d"], ["\u0120m", "on"], ["om", "e"], ["\u0120f", "il"], ["un", "g"], ["\u0120m", "et"], ["i", "am"], ["am", "a"], ["\u0120T", "e"], ["\u0120re", "v"], ["\u0120G", "re"], ["ad", "s"], ["\u0120in", "v"], ["\u0120h", "e"], ["\u0120E", "x"], ["\u0120g", "u"], ["\u0120N", "e"], ["\u0120con", "st"], ["i", "qu"], ["\u0120", "und"], ["\u0120p", "ass"], ["\u0120sp", "ec"], ["ce", "pt"], ["enc", "y"], ["ire", "ct"], ["du", "ct"], ["s", "c"], ["1", "1"], ["2", "5"], ["4", "5"], ["y", "p"], ["u", "k"], ["\u010a", "J"], ["l", "er"], ["en", "e"], ["es", "h"], ["at", "er"], ["r", "ed"], ["al", "t"], ["at", "or"], ["or", "ed"], ["\u0120s", "u"], ["er", "ing"], ["is", "on"], ["re", "t"], ["ion", "al"], ["it", "er"], ["e", "as"], ["as", "es"], ["ra", "w"], ["\u0120M", "an"], ["us", "s"], ["i", "ol"], ["ur", "al"], ["un", "ic"], ["\u01201", "0"], ["\u0120b", "u"], ["et", "t"], ["iv", "er"], ["iv", "ed"], ["iv", "al"], ["r", "id"], ["\u0120R", "e"], ["a", "ut"], ["ers", "on"], ["y", "st"], ["\u0120G", "u"], ["em", "ent"], ["\u0120d", "ist"], ["ot", "h"], ["op", "h"], ["el", "op"], ["\u0120K", "h"], ["\u012019", "8"], ["av", "e"], ["ish", "ed"], ["ial", "ly"], ["\u01202", "00"], ["\u0120o", "ut"], ["\u0120ar", "ch"], ["g", "ram"], ["ru", "ct"], ["o", "ugh"], ["1", "2"], ["1", "3"], ["4", "2"], ["4", "6"], ["1", "0"], ["2", "9"], ["o", "x"], ["4", "4"], ["7", "1"], ["9", "8"], ["4", "1"], ["4", "0"], ["y", "a"], ["p", "s"], ["s", "w"], ["\u0120", "x"], ["\u010a", "T"], ["\u010a", "R"], ["er", "a"], ["er", "b"], ["c", "es"], ["al", "k"], ["i", "or"], ["\u0120c", "m"], ["es", "ent"], ["ra", "g"], ["\u0120t", "r"], ["\u0120", "us"], ["il", "le"], ["\u0120B", "ar"], ["\u0120f", "in"], ["\u0120P", "re"], ["\u0120a", "b"], ["\u0120e", "v"], ["on", "st"], ["\u0120re", "m"], ["\u0120H", "e"], ["\u0120d", "em"], ["\u0120E", "d"], ["ab", "or"], ["\u01202", "5"], ["\u0120c", "ap"], ["n", "ess"], ["\u012019", "5"], ["h", "ip"], ["\u0120ex", "p"], ["ro", "und"], ["sh", "ip"], ["\u0120re", "pr"], ["\u0120res", "p"], ["w", "ork"], ["rib", "ut"], ["ograph", "y"], ["\u0120Ch", "rist"], ["b", "e"], ["s", "k"], ["3", "2"], ["3", "0"], ["1", "8"], ["e", "e"], ["3", "7"], ["6", "9"], ["o", "o"], ["2", "3"], ["\u0120", "z"], ["u", "a"], ["0", "8"], ["\u010a", "I"], ["\u010a", "H"], ["\u010a", "E"], ["m", "er"], ["b", "an"], ["p", "an"], ["v", "es"], ["on", "es"], ["e", "ar"], ["al", "i"], ["l", "or"], ["or", "l"], ["\u0120c", "ar"], ["y", "ing"], ["or", "ing"], ["\u0120c", "re"], ["is", "ion"], ["\u0120d", "r"], ["\u0120S", "l"], ["ro", "m"], ["ic", "ro"], ["\u0120c", "ent"], ["u", "ra"], ["\u0120m", "ed"], ["om", "in"], ["un", "n"], ["it", "ch"], ["\u0120b", "el"], ["\u0120P", "ar"], ["\u0120S", "am"], ["\u0120T", "r"], ["id", "es"], ["a", "id"], ["ig", "in"], ["ul", "f"], ["ul", "a"], ["\u0120H", "ar"], ["ent", "ly"], ["\u0120E", "m"], ["\u0120g", "l"], ["op", "s"], ["ir", "ed"], ["ir", "c"], ["ag", "es"], ["\u012019", "7"], ["os", "ph"], ["\u0120", "all"], ["\u01205", "5"], ["\u0120pro", "v"], ["\u01203", "8"], ["\u01207", "5"], ["\u0120s", "ec"], ["\u0120R", "ec"], ["end", "s"], ["\u0120m", "ain"], ["\u0120", "art"], ["\u01208", "5"], ["\u0120", "up"], ["our", "s"], ["\u0120ex", "pl"], ["ib", "le"], ["f", "ord"], ["ev", "er"], ["\u0120An", "g"], ["\u0120An", "d"], ["ry", "pt"], ["\u0120ad", "d"], ["\u0120le", "g"], ["port", "s"], ["olog", "ical"], ["\u0120s", "erv"], ["iv", "ely"], ["\u0120", "xl"], ["ple", "ment"], ["way", "s"], ["ro", "ll"], ["if", "ied"], ["\u0120or", "gan"], ["i", "eld"], ["yst", "em"], ["h", "i"], ["h", "a"], ["n", "e"], ["\u0120", "i"], ["p", "y"], ["6", "8"], ["6", "7"], ["6", "2"], ["9", "2"], ["9", "0"], ["g", "o"], ["2", "6"], ["9", "5"], ["4", "9"], ["i", "j"], ["z", "e"], ["an", "e"], ["e", "en"], ["u", "es"], ["m", "ar"], ["\u0120", "at"], ["v", "al"], ["\u0120s", "o"], ["\u0120s", "l"], ["\u0120s", "k"], ["en", "ing"], ["re", "w"], ["it", "al"], ["\u0120S", "e"], ["\u0120S", "al"], ["le", "t"], ["le", "x"], ["c", "le"], ["ro", "g"], ["as", "ed"], ["as", "c"], ["\u0120M", "on"], ["\u0120t", "ra"], ["\u0120c", "ur"], ["\u0120m", "in"], ["un", "e"], ["o", "ch"], ["om", "et"], ["et", "ic"], ["\u0120d", "et"], ["\u0120P", "al"], ["ol", "id"], ["id", "er"], ["\u0120R", "es"], ["ig", "r"], ["\u0120re", "t"], ["\u0120G", "e"], ["\u0120h", "on"], ["em", "b"], ["ist", "ed"], ["\u0120m", "ot"], ["ot", "t"], ["\u0120E", "l"], ["os", "ed"], ["n", "ow"], ["\u0120w", "e"], ["ab", "l"], ["d", "ay"], ["\u0120", "est"], ["\u0120t", "ri"], ["\u0120m", "od"], ["\u0120", "ant"], ["\u0120", "xx"], ["l", "ess"], ["\u0120P", "ort"], ["\u0120p", "ort"], ["\u01205", "7"], ["\u01205", "8"], ["ate", "g"], ["\u01206", "7"], ["\u01204", "5"], ["\u01204", "8"], ["ud", "e"], ["end", "ed"], ["ish", "ing"], ["ain", "s"], ["ug", "g"], ["n", "ect"], ["\u0120F", "ran"], ["pl", "ay"], ["at", "ure"], ["at", "her"], ["\u0120o", "cc"], ["ric", "k"], ["lo", "ck"], ["\u0120p", "ost"], ["\u0120", "xxx"], ["\u0120l", "xxx"], ["aw", "a"], ["\u0120cl", "ass"], ["w", "are"], ["at", "ely"], ["\u0120Com", "m"], ["\u0120J", "oh"], ["\u0120s", "ign"], ["ol", "low"], ["\u0120Q", "u"], ["if", "fer"], ["\u0120p", "ubl"], ["or", "por"], ["ol", "ution"], ["n", "d"], ["k", "e"], ["t", "a"], ["g", "h"], ["b", "r"], ["6", "0"], ["6", "5"], ["3", "4"], ["1", "7"], ["9", "3"], ["0", "3"], ["y", "t"], ["\u010a", "G"], ["\u010a", "D"], ["\u010a", "K"], ["in", "t"], ["on", "n"], ["on", "y"], ["en", "a"], ["d", "en"], ["es", "c"], ["o", "es"], ["at", "i"], ["at", "a"], ["at", "s"], ["v", "ed"], ["ed", "d"], ["al", "f"], ["or", "a"], ["re", "g"], ["\u0120p", "o"], ["it", "z"], ["\u0120S", "o"], ["\u0120S", "m"], ["y", "le"], ["ro", "p"], ["\u0120C", "o"], ["ra", "y"], ["ra", "b"], ["\u0120t", "ro"], ["us", "ed"], ["c", "ol"], ["ol", "m"], ["ur", "ing"], ["a", "ur"], ["ur", "k"], ["\u0120B", "l"], ["\u0120B", "u"], ["\u0120f", "re"], ["\u0120b", "re"], ["o", "ct"], ["am", "es"], ["re", "am"], ["h", "am"], ["\u0120d", "iv"], ["iv", "ing"], ["er", "ation"], ["in", "ation"], ["\u0120R", "o"], ["im", "a"], ["\u0120s", "im"], ["ut", "e"], ["\u0120e", "le"], ["\u0120G", "l"], ["re", "ad"], ["ad", "a"], ["\u0120in", "s"], ["in", "ce"], ["ist", "an"], ["r", "and"], ["an", "ia"], ["r", "ia"], ["ow", "er"], ["ab", "b"], ["\u0120m", "ag"], ["y", "th"], ["\u0120", "ri"], ["ri", "es"], ["od", "y"], ["\u0120con", "c"], ["ak", "a"], ["ak", "ing"], ["\u0120l", "xx"], ["c", "ess"], ["\u0120O", "l"], ["\u0120m", "ov"], ["ar", "ies"], ["og", "n"], ["cc", "ess"], ["\u0120de", "c"], ["\u0120pro", "t"], ["ip", "p"], ["\u0120h", "ard"], ["\u01206", "8"], ["\u01206", "5"], ["\u0120st", "ud"], ["end", "ing"], ["\u01208", "8"], ["\u01209", "5"], ["ens", "e"], ["our", "n"], ["\u0120sp", "e"], ["\u0120M", "ac"], ["ff", "ic"], ["\u0120c", "cl"], ["\u0120R", "ep"], ["e", "ep"], ["\u0120In", "f"], ["ous", "e"], ["\u0120sh", "ort"], ["\u0120R", "eg"], ["et", "her"], ["\u0120m", "ult"], ["\u0120M", "ont"], ["\u0120m", "ark"], ["\u0120w", "rit"], ["\u0120t", "rad"], ["\u0120f", "ound"], ["\u0120ap", "pro"], ["\u0120ap", "pe"], ["anc", "es"], ["id", "ae"], ["\u0120s", "yn"], ["\u0120ph", "ys"], ["\u0120", "over"], ["ra", "ft"], ["bo", "ok"], ["un", "ction"], ["ward", "s"], ["v", "iew"], ["\u0120a", "uth"], ["\u0120cont", "inu"], ["\u0120bro", "ad"], ["ros", "s"], ["\u0120d", "irect"], ["\u0120dev", "elop"], ["3", "3"], ["9", "7"], ["l", "a"], ["2", "8"], ["2", "1"], ["3", "6"], ["3", "9"], ["9", "1"], ["4", "7"], ["z", "z"], ["0", "4"], ["s", "y"], ["j", "a"], ["I", "I"], ["\u010a", "N"], ["\u010a", "B"], ["w", "in"], ["er", "r"], ["er", "c"], ["ed", "s"], ["ar", "ed"], ["al", "es"], ["\u0120c", "c"], ["\u0120s", "m"], ["er", "ic"], ["ic", "es"], ["ic", "on"], ["is", "l"], ["\u0120", "is"], ["re", "l"], ["\u0120p", "e"], ["it", "t"], ["ic", "it"], ["\u0120d", "er"], ["\u0120S", "w"], ["\u0120S", "ing"], ["i", "ro"], ["ro", "b"], ["r", "as"], ["as", "on"], ["el", "f"], ["\u0120", "el"], ["u", "el"], ["\u0120M", "al"], ["\u0120t", "w"], ["\u0120A", "t"], ["\u0120A", "g"], ["us", "es"], ["il", "es"], ["ur", "b"], ["\u0120B", "ro"], ["\u0120B", "ra"], ["\u0120B", "el"], ["om", "y"], ["ur", "ch"], ["ch", "n"], ["\u0120s", "ch"], ["\u0120b", "l"], ["\u0120b", "et"], ["\u0120P", "r"], ["\u0120P", "ol"], ["am", "b"], ["iv", "il"], ["\u0120T", "or"], ["id", "s"], ["\u0120R", "h"], ["\u0120a", "f"], ["\u0120a", "x"], ["im", "s"], ["\u0120l", "x"], ["um", "m"], ["um", "ent"], ["\u0120a", "ut"], ["i", "ers"], ["\u0120e", "p"], ["\u0120H", "on"], ["\u0120G", "en"], ["\u0120G", "h"], ["ad", "e"], ["p", "ly"], ["\u0120E", "v"], ["el", "and"], ["and", "s"], ["ar", "ia"], ["op", "e"], ["\u0120p", "op"], ["\u0120N", "ot"], ["as", "ter"], ["ar", "th"], ["est", "s"], ["\u0120c", "od"], ["\u0120con", "f"], ["\u01202", "7"], ["ak", "er"], ["\u0120r", "est"], ["\u0120r", "ed"], ["ap", "t"], ["ck", "s"], ["or", "ies"], ["all", "er"], ["\u0120pro", "p"], ["\u01203", "7"], ["ic", "ip"], ["\u0120Ch", "ap"], ["ard", "s"], ["\u01207", "8"], ["\u01204", "7"], ["ain", "ed"], ["\u0120", "ill"], ["al", "ity"], ["\u01209", "7"], ["\u01209", "8"], ["iz", "e"], ["\u0120h", "igh"], ["\u0120ch", "e"], ["\u0120ch", "ar"], ["\u0120th", "e"], ["\u0120", "ast"], ["c", "ast"], ["\u0120L", "ib"], ["\u0120", "ord"], ["it", "ions"], ["igh", "ts"], ["p", "ts"], ["le", "ts"], ["\u0120e", "ff"], ["cl", "ud"], ["\u0120d", "cl"], ["\u0120s", "ep"], ["\u0120In", "ter"], ["ang", "e"], ["\u0120A", "ust"], ["ug", "ust"], ["\u0120An", "t"], ["ot", "her"], ["her", "e"], ["ri", "pt"], ["enc", "ies"], ["enc", "es"], ["\u012018", "7"], ["\u0120Al", "l"], ["ov", "ern"], ["ert", "ain"], ["\u0120pr", "es"], ["\u0120Th", "e"], ["land", "s"], ["ail", "s"], ["ik", "e"], ["ath", "em"], ["\u0120an", "n"], ["\u0120c", "rit"], ["\u0120im", "pro"], ["\u0120sub", "st"], ["\u0120", "eng"], ["iss", "ion"], ["\u0120ne", "igh"], ["row", "n"], ["row", "s"], ["\u0120t", "rav"], ["\u0120T", "rans"], ["\u0120dcc", "c"], ["\u0120dcc", "l"], ["ing", "ton"], ["\u0120v", "ari"], ["out", "h"], ["\u0120des", "ign"], ["ech", "n"], ["\u0120p", "oss"], ["ab", "ility"], ["\u0120h", "istor"], ["iqu", "e"], ["v", "ille"], ["\u0120repr", "esent"], ["et", "work"], ["\u0120con", "nect"], ["\u0120d", "iffer"], ["\u0120te", "chn"], ["h", "o"], ["6", "3"], ["o", "i"], ["6", "6"], ["d", "e"], ["9", "4"], ["0", "6"], ["x", "t"], ["0", "1"], ["0", "5"], ["g", "y"], ["u", "f"], ["\u010a", "V"], ["A", "S"], ["N", "E"], ["n", "er"], ["er", "o"], ["\u0120", "on"], ["an", "i"], ["m", "en"], ["an", "es"], ["\u0120c", "al"], ["\u0120c", "an"], ["l", "ing"], ["re", "at"], ["re", "en"], ["it", "ar"], ["it", "a"], ["\u0120d", "c"], ["\u0120S", "er"], ["\u0120S", "S"], ["\u0120c", "le"], ["\u0120C", "r"], ["\u0120C", "an"], ["\u0120C", "al"], ["as", "p"], ["\u0120d", "el"], ["c", "ent"], ["ent", "h"], ["\u0120M", "ed"], ["\u0120t", "o"], ["\u0120A", "z"], ["us", "ic"], ["at", "us"], ["ol", "l"], ["\u0120s", "ol"], ["il", "s"], ["ur", "ed"], ["ur", "y"], ["\u0120m", "e"], ["\u0120m", "ar"], ["\u0120B", "er"], ["d", "om"], ["om", "b"], ["\u0120f", "e"], ["un", "t"], ["un", "ch"], ["u", "ch"], ["\u0120b", "ur"], ["et", "er"], ["g", "et"], ["re", "et"], ["\u0120P", "e"], ["am", "s"], ["am", "m"], ["am", "ed"], ["\u0120T", "u"], ["id", "ed"], ["id", "d"], ["\u0120R", "om"], ["\u0120R", "s"], ["\u0120T", "im"], ["im", "ent"], ["x", "im"], ["\u0120l", "a"], ["v", "ers"], ["ig", "g"], ["ig", "er"], ["ul", "g"], ["in", "st"], ["st", "er"], ["\u0120L", "a"], ["\u0120H", "er"], ["\u0120M", "ad"], ["\u0120D", "el"], ["\u0120D", "es"], ["\u0120D", "e"], ["\u0120re", "ce"], ["\u0120t", "em"], ["\u0120s", "em"], ["em", "y"], ["b", "and"], ["il", "os"], ["\u0120t", "op"], ["ir", "st"], ["\u0120a", "ir"], ["ir", "t"], ["ir", "d"], ["ow", "s"], ["h", "ab"], ["ag", "ed"], ["\u0120M", "ag"], ["\u0120P", "ri"], ["i", "od"], ["od", "e"], ["od", "g"], ["ak", "es"], ["ap", "s"], ["\u0120st", "ri"], ["\u0120st", "and"], ["\u0120O", "n"], ["\u0120O", "p"], ["\u0120N", "ov"], ["\u0120J", "o"], ["\u0120J", "ul"], ["ro", "ph"], ["\u0120v", "al"], ["\u0120V", "al"], ["\u0120pro", "m"], ["\u0120pro", "f"], ["\u01203", "5"], ["\u0120re", "qu"], ["\u0120e", "qu"], ["ub", "s"], ["r", "ate"], ["\u0120D", "av"], ["av", "ed"], ["m", "ud"], ["ec", "ut"], ["art", "s"], ["l", "ine"], ["ill", "ing"], ["ell", "s"], ["w", "ell"], ["ell", "a"], ["ch", "ie"], ["\u0120S", "up"], ["ial", "s"], ["f", "ect"], ["ect", "or"], ["pl", "es"], ["pl", "ic"], ["h", "ib"], ["ord", "s"], ["ac", "es"], ["oc", "i"], ["\u0120U", "S"], ["e", "ff"], ["\u0120s", "ev"], ["\u0120", "ang"], ["\u0120c", "ust"], ["\u0120re", "act"], ["\u0120f", "act"], ["\u0120b", "eg"], ["2", "00"], ["oun", "ts"], ["em", "pt"], ["\u0120ad", "m"], ["\u0120", "enc"], ["ric", "h"], ["\u012018", "8"], ["\u0120comp", "ut"], ["\u0120b", "ack"], ["\u0120p", "ack"], ["\u0120C", "ons"], ["\u0120im", "p"], ["\u0120d", "own"], ["l", "ight"], ["\u0120N", "ew"], ["\u0120n", "ew"], ["du", "c"], ["u", "ally"], ["y", "pe"], ["\u0120l", "aw"], ["s", "erv"], ["m", "ont"], ["\u0120G", "old"], ["\u0120in", "tern"], ["\u0120In", "tern"], ["yl", "l"], ["rad", "e"], ["\u0120", "rad"], ["\u0120Ar", "ch"], ["x", "viii"], ["\u0120pl", "ay"], ["xl", "ix"], ["ict", "or"], ["ugh", "t"], ["ro", "ugh"], ["\u0120s", "ym"], ["em", "ber"], ["ic", "les"], ["\u0120d", "yn"], ["\u0120c", "ount"], ["\u0120op", "er"], ["\u0120f", "lu"], ["at", "ives"], ["inc", "ip"], ["rim", "e"], ["ific", "ation"], ["an", "ese"], ["\u0120Mc", "G"], ["\u0120em", "b"], ["ubl", "ic"], ["amp", "ions"], ["\u0120h", "ead"], ["il", "ities"], ["ech", "an"], ["\u0120", "ident"], ["ib", "ility"], ["\u0120", "xc"], ["\u0120t", "erm"], ["med", "i"], ["\u0120H", "istor"], ["\u0120E", "uro"], ["\u0120fil", "m"], ["\u0120l", "iter"], ["\u0120p", "erson"], ["\u0120pro", "gram"], ["i", "ography"], ["orl", "d"], ["\u0120m", "icro"], ["\u0120or", "igin"], ["\u0120c", "irc"], ["f", "ield"], ["\u0120f", "ollow"], ["\u0120pro", "cess"], ["\u0120j", "ourn"], ["\u0120auth", "or"], ["sy", "ch"], ["\u0120neigh", "b"], ["\u0120cust", "om"], ["c", "o"], ["9", "6"], ["3", "1"], ["s", "m"], ["g", "a"], ["8", "1"], ["2", "7"], ["o", "a"], ["6", "1"], ["w", "h"], ["e", "h"], ["U", "n"], ["k", "o"], ["C", "h"], ["y", "g"], ["k", "a"], ["y", "b"], ["S", "O"], ["i", "h"], ["P", "O"], ["B", "S"], ["U", "G"], ["in", "y"], ["b", "on"], ["u", "an"], ["an", "y"], ["n", "es"], ["p", "at"], ["at", "o"], ["in", "ed"], ["en", "ed"], ["on", "al"], ["in", "al"], ["or", "i"], ["o", "or"], ["\u0120s", "w"], ["ing", "er"], ["al", "ing"], ["v", "ing"], ["ar", "ing"], ["is", "ing"], ["re", "ed"], ["it", "i"], ["it", "u"], ["\u0120p", "le"], ["u", "le"], ["l", "as"], ["g", "ent"], ["\u0120M", "e"], ["\u0120t", "it"], ["\u0120A", "c"], ["\u0120A", "f"], ["us", "ion"], ["or", "us"], ["us", "c"], ["us", "ing"], ["p", "ol"], ["ol", "s"], ["il", "i"], ["\u0120S", "ur"], ["ur", "s"], ["ur", "d"], ["\u0120B", "o"], ["\u0120B", "h"], ["om", "a"], ["\u0120b", "er"], ["\u0120b", "as"], ["in", "et"], ["am", "er"], ["l", "am"], ["ol", "iv"], ["id", "ing"], ["is", "ation"], ["\u0120a", "er"], ["\u0120a", "v"], ["\u0120d", "im"], ["a", "im"], ["im", "m"], ["ut", "s"], ["\u0120", "ut"], ["ers", "t"], ["ig", "a"], ["ul", "ation"], ["st", "on"], ["\u0120H", "ol"], ["\u0120G", "ra"], ["\u0120G", "ar"], ["ad", "y"], ["ad", "or"], ["l", "ad"], ["\u0120D", "is"], ["\u0120S", "em"], ["em", "a"], ["ot", "s"], ["\u0120E", "r"], ["and", "ing"], ["and", "ed"], ["os", "p"], ["\u0120p", "os"], ["\u0120F", "e"], ["\u0120g", "ro"], ["\u0120g", "o"], ["\u0120g", "al"], ["\u0120", "ir"], ["\u0120l", "ab"], ["it", "ter"], ["ag", "er"], ["ag", "o"], ["\u0120I", "r"], ["\u0120I", "m"], ["\u0120E", "th"], ["est", "ed"], ["\u0120d", "est"], ["\u0120n", "um"], ["\u0120W", "e"], ["\u0120W", "est"], ["ri", "al"], ["ant", "on"], ["ak", "ers"], ["\u0120r", "h"], ["\u0120d", "xx"], ["ap", "p"], ["ap", "e"], ["in", "ess"], ["\u0120O", "b"], ["\u0120O", "ct"], ["if", "y"], ["am", "ph"], ["e", "ph"], ["\u0120v", "ol"], ["\u0120v", "is"], ["ort", "s"], ["\u0120A", "cc"], ["\u0120de", "g"], ["\u0120f", "all"], ["all", "ed"], ["\u0120com", "b"], ["\u0120ex", "c"], ["ub", "le"], ["ow", "ard"], ["\u0120H", "ard"], ["en", "ium"], ["\u01207", "7"], ["\u0120b", "ec"], ["end", "er"], ["ment", "ed"], ["\u01208", "7"], ["\u0120W", "ill"], ["ug", "e"], ["r", "up"], ["ens", "is"], ["\u0120", "ens"], ["r", "ated"], ["\u0120F", "our"], ["ib", "l"], ["ob", "s"], ["\u0120m", "ob"], ["ct", "ions"], ["ac", "ing"], ["ul", "ts"], ["\u0120d", "oc"], ["\u0120l", "oc"], ["n", "ey"], ["\u0120k", "ill"], ["\u0120k", "n"], ["\u0120k", "ey"], ["ep", "t"], ["\u0120D", "ep"], ["ry", "st"], ["\u0120R", "ev"], ["\u0120l", "ong"], ["ong", "s"], ["\u0120B", "ang"], ["ous", "ly"], ["\u0120B", "ah"], ["act", "er"], ["act", "ive"], ["\u0120L", "eg"], ["er", "man"], ["man", "n"], ["\u0120comp", "le"], ["\u0120comp", "et"], ["lo", "ad"], ["\u0120le", "ad"], ["port", "ed"], ["\u0120W", "ind"], ["in", "als"], ["\u0120un", "c"], ["\u0120ar", "g"], ["em", "ents"], ["\u0120h", "ost"], ["\u0120pr", "iv"], ["aw", "n"], ["r", "ont"], ["\u0120M", "ark"], ["m", "ark"], ["old", "s"], ["es", "tern"], ["yl", "in"], ["\u0120an", "al"], ["\u0120Ar", "t"], ["eng", "th"], ["\u0120Com", "p"], ["te", "en"], ["se", "ud"], ["\u0120M", "ich"], ["\u0120pre", "m"], ["rav", "e"], ["\u0120te", "le"], ["\u0120te", "ach"], ["\u0120w", "ork"], ["low", "er"], ["\u0120dcc", "cl"], ["\u0120col", "l"], ["\u0120ac", "qu"], ["\u010aA", "n"], ["fer", "ence"], ["at", "ory"], ["\u0120int", "eg"], ["\u0120int", "ro"], ["\u0120op", "t"], ["\u0120des", "c"], ["bur", "y"], ["ru", "ction"], ["\u0120f", "oot"], ["w", "ood"], ["\u0120per", "form"], ["\u0120L", "uc"], ["vent", "ion"], ["\u0120sur", "v"], ["\u0120be", "h"], ["du", "ced"], ["\u0120c", "amp"], ["ip", "lin"], ["\u0120v", "iew"], ["\u0120th", "erm"], ["\u0120Sp", "ec"], ["\u0120dep", "art"], ["\u0120ex", "press"], ["com", "m"], ["\u0120n", "orth"], ["\u0120N", "orth"], ["\u0120acc", "ess"], ["\u0120ob", "ject"], ["\u0120off", "ic"], ["ren", "ch"], ["\u0120ed", "uc"], ["\u0120Com", "put"], ["\u0120inf", "lu"], ["g", "ress"], ["pl", "oy"], ["\u0120cd", "l"], ["\u0120Gre", "en"], ["\u0120inv", "ol"], ["\u0120und", "erg"], ["\u0120d", "raw"], ["\u0120v", "iol"], ["\u0120s", "ett"], ["our", "ces"]]}