{"version": 1, "vocab_size": 1024, "merges": [["a", "n"], ["e", "r"], ["i", "n"], ["o", "n"], ["a", "r"], ["e", "n"], ["\u0120", "1"], ["e", "s"], ["\u0120", "s"], ["\u0120", "c"], ["a", "l"], ["i", "i"], ["o", "r"], ["x", "x"], ["u", "m"], ["l", "e"], ["a", "t"], ["i", "a"], ["\u0120", "5"], ["\u0120", "t"], ["\u0120", "3"], ["\u0120", "d"], ["\u0120", "b"], ["l", "i"], ["o", "u"], ["\u0120", "A"], ["\u0120", "2"], ["\u0120", "4"], ["\u0120", "6"], ["r", "a"], ["\u0120", "9"], ["\u0120", "M"], ["s", "t"], ["\u0120", "8"], ["\u0120", "7"], ["r", "o"], ["in", "g"], ["\u0120", "B"], ["\u0120", "w"], ["e", "l"], ["\u0120", "S"], ["\u0120", "l"], ["\u0120", "f"], ["i", "um"], ["\u0120", "m"], ["\u0120", "C"], ["o", "l"], ["\u0120", "h"], ["a", "d"], ["r", "i"], ["\u0120", "T"], ["e", "t"], ["\u0120", "p"], ["o", "m"], ["i", "c"], ["a", "m"], ["\u0120", "P"], ["r", "e"], ["i", "s"], ["ii", "i"], ["i", "l"], ["i", "t"], ["o", "w"], ["an", "d"], ["en", "t"], ["e", "d"], ["u", "n"], ["\u0120", "N"], ["c", "h"], ["\u0120", "R"], ["a", "s"], ["\u0120", "L"], ["u", "r"], ["\u0120", "H"], ["a", "p"], ["i", "v"], ["i", "r"], ["\u0120", "g"], ["es", "t"], ["\u0120", "n"], ["a", "k"], ["i", "g"], ["i", "d"], ["c", "c"], ["xx", "x"], ["u", "s"], ["a", "y"], ["\u0120", "e"], ["t", "h"], ["u", "l"], ["\u0120", "G"], ["v", "er"], ["o", "t"], ["c", "e"], ["\u0120", "D"], ["\u0120t", "h"], ["i", "m"], ["a", "g"], ["\u0120", "I"], ["o", "s"], ["\u0120s", "t"], ["v", "iii"], ["o", "p"], ["c", "t"], ["\u0120", "x"], ["an", "t"], ["e", "y"], ["al", "l"], ["\u0120", "k"], ["e", "e"], ["o", "d"], ["\u0120", "E"], ["u", "t"], ["a", "b"], ["c", "k"], ["\u0120", "K"], ["\u0120", "V"], ["\u0120", "O"], ["h", "t"], ["e", "m"], ["q", "u"], ["an", "a"], ["an", "g"], ["t", "er"], ["on", "t"], ["\u01201", "1"], ["\u01201", "2"], ["ou", "n"], ["\u0120d", "cc"], ["\u0120", "W"], ["\u0120", "F"], ["a", "u"], ["\u0120", "J"], ["on", "g"], ["\u01201", "0"], ["ou", "r"], ["\u0120", "r"], ["l", "y"], ["i", "x"], ["\u01201", "3"], ["v", "i"], ["o", "k"], ["u", "b"], ["a", "w"], ["\u01201", "6"], ["\u01201", "4"], ["\u0120s", "p"], ["v", "ii"], ["or", "t"], ["\u0120", "li"], ["\u0120A", "n"], ["ra", "in"], ["a", "st"], ["s", "h"], ["e", "a"], ["c", "l"], ["an", "s"], ["er", "s"], ["b", "er"], ["\u01201", "8"], ["\u01201", "5"], ["\u0120", "le"], ["o", "li"], ["\u0120T", "h"], ["\u0120n", "e"], ["e", "g"], ["s", "e"], ["a", "h"], ["p", "t"], ["\u0120", "Y"], ["in", "d"], ["i", "on"], ["ar", "d"], ["m", "ar"], ["\u01201", "7"], ["\u0120c", "h"], ["\u01205", "3"], ["\u01203", "9"], ["ol", "d"], ["ow", "n"], ["l", "and"], ["r", "y"], ["c", "o"], ["o", "v"], ["a", "f"], ["\u0120", "U"], ["in", "e"], ["\u0120s", "e"], ["at", "e"], ["an", "ia"], ["\u01203", "6"], ["\u01203", "0"], ["\u01209", "0"], ["st", "an"], ["u", "st"], ["ro", "v"], ["ic", "k"], ["is", "s"], ["iv", "e"], ["d", "ay"], ["im", "p"], ["p", "l"], ["o", "g"], ["a", "i"], ["\u0120", "o"], ["\u0120", "Z"], ["x", "c"], ["er", "e"], ["in", "s"], ["on", "e"], ["ar", "e"], ["or", "d"], ["b", "ia"], ["\u01205", "8"], ["\u01205", "1"], ["\u01203", "3"], ["li", "um"], ["\u01202", "6"], ["\u01202", "4"], ["\u01206", "4"], ["\u01206", "7"], ["\u01209", "5"], ["\u01208", "5"], ["\u01208", "9"], ["\u01208", "6"], ["\u01207", "3"], ["\u01207", "4"], ["\u0120w", "h"], ["el", "l"], ["\u0120C", "h"], ["om", "e"], ["f", "ul"], ["p", "e"], ["\u0120", "y"], ["d", "e"], ["u", "g"], ["u", "a"], ["k", "a"], ["x", "l"], ["m", "an"], ["on", "d"], ["v", "en"], ["\u01201", "9"], ["r", "es"], ["\u0120c", "d"], ["\u0120c", "l"], ["\u0120c", "m"], ["al", "t"], ["al", "e"], ["\u0120", "xx"], ["\u01205", "7"], ["\u01205", "6"], ["\u01205", "2"], ["\u01205", "4"], ["\u01205", "0"], ["\u01203", "8"], ["\u01203", "7"], ["\u0120b", "o"], ["\u0120b", "e"], ["li", "x"], ["\u0120A", "l"], ["\u01202", "7"], ["\u01202", "0"], ["\u01202", "1"], ["\u01204", "0"], ["\u01204", "1"], ["\u01204", "7"], ["\u01204", "8"], ["\u01206", "1"], ["ra", "m"], ["\u01209", "8"], ["\u01209", "2"], ["\u01208", "8"], ["\u01207", "5"], ["\u0120l", "xx"], ["m", "ium"], ["\u0120h", "e"], ["re", "e"], ["un", "d"], ["a", "ch"], ["ak", "e"], ["id", "e"], ["\u0120", "xxx"], ["\u0120l", "xxx"], ["ver", "y"], ["ee", "p"], ["ig", "ht"], ["g", "ht"], ["\u0120", "qu"], ["oun", "t"], ["t", "e"], ["n", "e"], ["v", "e"], ["u", "p"], ["i", "f"], ["u", "d"], ["s", "w"], ["z", "e"], ["i", "an"], ["r", "an"], ["in", "a"], ["ar", "a"], ["ar", "m"], ["on", "es"], ["\u0120s", "c"], ["\u0120s", "h"], ["\u0120c", "o"], ["t", "le"], ["\u01203", "1"], ["\u01203", "2"], ["\u0120d", "c"], ["\u01202", "9"], ["\u01202", "3"], ["\u01204", "5"], ["\u01204", "2"], ["\u01204", "4"], ["\u01204", "3"], ["\u01206", "6"], ["\u01206", "3"], ["\u01206", "2"], ["\u01206", "5"], ["\u01209", "3"], ["\u01209", "4"], ["\u01207", "9"], ["ro", "g"], ["r", "ing"], ["\u0120B", "e"], ["\u0120l", "x"], ["\u0120m", "e"], ["c", "ol"], ["\u0120", "ri"], ["\u0120p", "l"], ["\u0120c", "om"], ["am", "a"], ["\u0120", "re"], ["il", "l"], ["l", "ow"], ["v", "ent"], ["un", "e"], ["\u0120N", "e"], ["oun", "d"], ["\u0120W", "h"], ["b", "e"], ["o", "f"], ["c", "a"], ["p", "y"], ["g", "h"], ["g", "e"], ["\u0120", "v"], ["b", "i"], ["u", "z"], ["a", "z"], ["g", "er"], ["er", "b"], ["\u0120", "in"], ["in", "k"], ["ar", "y"], ["ar", "b"], ["ar", "t"], ["r", "en"], ["n", "es"], ["o", "es"], ["al", "a"], ["l", "or"], ["i", "le"], ["p", "le"], ["\u01205", "9"], ["\u01205", "5"], ["ou", "s"], ["ou", "d"], ["ou", "t"], ["\u0120A", "r"], ["\u0120A", "s"], ["\u01202", "2"], ["\u01202", "5"], ["\u01204", "9"], ["\u01204", "6"], ["\u01206", "8"], ["\u01206", "9"], ["ra", "s"], ["\u01209", "7"], ["\u01209", "1"], ["\u01209", "9"], ["\u0120M", "al"], ["\u0120M", "o"], ["\u01208", "7"], ["\u01208", "1"], ["\u01208", "4"], ["\u01207", "1"], ["\u01207", "7"], ["ro", "m"], ["ro", "w"], ["u", "ro"], ["\u0120S", "p"], ["\u0120f", "or"], ["\u0120C", "ol"], ["ri", "es"], ["et", "h"], ["ic", "a"], ["ic", "h"], ["il", "s"], ["ur", "k"], ["a", "ir"], ["ig", "h"], ["\u0120c", "cc"], ["\u0120I", "n"], ["a", "ct"], ["o", "od"], ["o", "ck"], ["m", "ont"], ["\u0120M", "ont"], ["i", "stan"], ["imp", "rov"], ["w", "o"], ["b", "a"], ["l", "u"], ["f", "f"], ["\u0120", "j"], ["i", "e"], ["a", "v"], ["t", "y"], ["y", "l"], ["h", "u"], ["e", "p"], ["j", "e"], ["\u0120", "z"], ["i", "b"], ["\u0120", "an"], ["er", "n"], ["i", "er"], ["a", "in"], ["c", "on"], ["ar", "k"], ["\u0120", "ar"], ["en", "s"], ["en", "a"], ["es", "e"], ["\u0120", "or"], ["or", "k"], ["f", "or"], ["xx", "ii"], ["um", "b"], ["le", "d"], ["at", "er"], ["\u0120", "at"], ["v", "ia"], ["\u0120t", "o"], ["\u01203", "4"], ["\u01203", "5"], ["\u0120A", "m"], ["\u01206", "0"], ["ra", "v"], ["\u0120", "ra"], ["\u0120M", "ar"], ["\u01208", "0"], ["\u01208", "2"], ["\u01207", "6"], ["\u01207", "0"], ["\u01207", "2"], ["\u01207", "8"], ["n", "ing"], ["\u0120B", "r"], ["el", "s"], ["en", "ium"], ["ri", "d"], ["ri", "t"], ["an", "et"], ["\u0120m", "et"], ["ic", "e"], ["am", "p"], ["\u0120", "is"], ["\u0120", "it"], ["and", "a"], ["un", "g"], ["at", "ch"], ["as", "k"], ["as", "h"], ["\u0120H", "on"], ["ir", "d"], ["ig", "er"], ["\u0120e", "le"], ["ul", "l"], ["\u0120I", "s"], ["\u0120x", "c"], ["ant", "s"], ["a", "ck"], ["\u0120c", "ont"], ["\u0120dcc", "c"], ["\u0120s", "ix"], ["\u0120P", "ort"], ["\u0120", "rain"], ["\u0120t", "rain"], ["\u0120d", "cl"], ["\u0120", "af"], ["ag", "ua"], ["x", "lix"], ["an", "ama"], ["\u0120In", "d"], ["\u0120", "improv"], ["m", "e"], ["h", "o"], ["p", "p"], ["l", "o"], ["h", "i"], ["m", "o"], ["w", "e"], ["y", "s"], ["t", "r"], ["a", "c"], ["b", "o"], ["e", "k"], ["o", "b"], ["k", "s"], ["p", "h"], ["y", "e"], ["g", "y"], ["z", "y"], ["i", "j"], ["an", "u"], ["b", "an"], ["an", "o"], ["an", "an"], ["z", "er"], ["er", "y"], ["er", "c"], ["in", "c"], ["in", "t"], ["in", "y"], ["m", "on"], ["on", "a"], ["t", "on"], ["\u0120", "on"], ["g", "on"], ["e", "ar"], ["g", "ar"], ["en", "d"], ["e", "en"], ["t", "en"], ["in", "es"], ["\u0120c", "c"], ["v", "al"], ["r", "al"], ["\u0120c", "or"], ["or", "e"], ["l", "xx"], ["um", "m"], ["c", "le"], ["b", "le"], ["at", "h"], ["at", "in"], ["n", "ia"], ["en", "ia"], ["\u0120t", "r"], ["\u0120t", "w"], ["\u0120b", "er"], ["li", "v"], ["\u0120A", "f"], ["\u01202", "8"], ["ra", "g"], ["\u0120M", "or"], ["o", "st"], ["\u01208", "3"], ["\u0120w", "al"], ["i", "el"], ["el", "f"], ["\u0120B", "el"], ["\u0120S", "e"], ["\u0120S", "t"], ["\u0120l", "ar"], ["\u0120m", "in"], ["\u0120C", "an"], ["h", "ol"], ["ol", "a"], ["\u0120M", "ad"], ["ad", "o"], ["\u0120", "ad"], ["\u0120T", "e"], ["i", "et"], ["om", "a"], ["d", "om"], ["am", "e"], ["\u0120", "am"], ["\u0120P", "l"], ["re", "at"], ["ou", "is"], ["\u0120m", "il"], ["v", "il"], ["it", "y"], ["it", "e"], ["g", "ent"], ["i", "ent"], ["\u0120R", "om"], ["\u0120L", "e"], ["\u0120L", "u"], ["at", "ur"], ["ap", "e"], ["x", "iv"], ["iv", "es"], ["\u0120g", "o"], ["ak", "a"], ["ak", "es"], ["\u0120b", "ig"], ["l", "xxx"], ["xxx", "v"], ["us", "e"], ["i", "us"], ["ay", "s"], ["\u0120e", "x"], ["\u0120G", "u"], ["\u0120G", "e"], ["\u0120D", "o"], ["im", "e"], ["ag", "e"], ["os", "e"], ["xx", "viii"], ["xxx", "viii"], ["op", "e"], ["op", "en"], ["op", "p"], ["\u0120x", "l"], ["s", "ant"], ["m", "all"], ["\u0120k", "il"], ["s", "ee"], ["od", "y"], ["ab", "le"], ["g", "ab"], ["ro", "ck"], ["i", "ana"], ["\u0120B", "ang"], ["et", "ter"], ["t", "ter"], ["\u0120l", "ong"], ["\u0120f", "our"], ["our", "s"], ["ub", "a"], ["\u0120", "aw"], ["aw", "a"], ["\u0120An", "t"], ["\u0120f", "ast"], ["p", "ea"], ["\u0120c", "cl"], ["ans", "as"], ["ers", "on"], ["em", "ber"], ["ap", "oli"], ["\u0120ne", "ed"], ["\u0120b", "eg"], ["ou", "se"], ["at", "ion"], ["ion", "s"], ["\u0120", "own"], ["et", "own"], ["land", "s"], ["\u0120A", "ust"], ["\u0120st", "ick"], ["s", "ive"], ["pl", "es"], ["ai", "ro"], ["\u0120dcc", "xc"], ["al", "lium"], ["xl", "iii"], ["res", "h"], ["und", "er"], ["\u0120e", "very"], ["\u0120e", "ight"], ["li", "ght"], ["te", "en"], ["\u0120f", "if"], ["ones", "ia"], ["\u0120se", "vent"], ["gh", "an"], ["erb", "ium"], ["urk", "ey"], ["val", "u"], ["iel", "d"], ["vil", "le"], ["apoli", "s"], ["l", "l"], ["s", "k"], ["\u0120", "i"], ["2", "5"], ["l", "d"], ["b", "r"], ["t", "s"], ["y", "o"], ["o", "x"], ["p", "o"], ["P", "T"], ["e", "v"], ["u", "e"], ["w", "h"], ["k", "y"], ["m", "s"], ["g", "i"], ["y", "a"], ["k", "o"], ["c", "y"], ["p", "s"], ["c", "u"], ["d", "h"], ["j", "a"], ["\u0120", "Q"], ["y", "r"], ["h", "n"], ["h", "d"], ["an", "c"], ["j", "an"], ["c", "an"], ["an", "k"], ["e", "er"], ["er", "i"], ["n", "er"], ["er", "u"], ["e", "in"], ["r", "in"], ["b", "in"], ["in", "o"], ["o", "on"], ["on", "i"], ["on", "s"], ["in", "ar"], ["ar", "l"], ["g", "en"], ["en", "c"], ["k", "en"], ["es", "o"], ["es", "h"], ["d", "es"], ["\u0120s", "n"], ["\u0120s", "y"], ["\u0120c", "ar"], ["\u0120c", "an"], ["al", "i"], ["\u0120c", "al"], ["p", "al"], ["\u0120", "al"], ["al", "s"], ["z", "al"], ["al", "f"], ["or", "g"], ["or", "y"], ["d", "le"], ["le", "v"], ["\u0120s", "le"], ["at", "i"], ["l", "at"], ["at", "u"], ["at", "ar"], ["c", "at"], ["at", "on"], ["at", "s"], ["at", "es"], ["or", "ia"], ["ia", "g"], ["ia", "m"], ["c", "ia"], ["at", "ia"], ["\u0120d", "o"], ["\u0120b", "al"], ["\u0120b", "or"], ["li", "er"], ["li", "c"], ["r", "ou"], ["\u0120A", "p"], ["or", "ra"], ["g", "ra"], ["b", "ra"]]}